/**
  ******************************************************************************
  * @file    ia_embarque_data_params.c
  * @author  AST Embedded Analytics Research Platform
  * @date    2025-03-19T09:43:18+0100
  * @brief   AI Tool Automatic Code Generator for Embedded NN computing
  ******************************************************************************
  * Copyright (c) 2025 STMicroelectronics.
  * All rights reserved.
  *
  * This software is licensed under terms that can be found in the LICENSE file
  * in the root directory of this software component.
  * If no LICENSE file comes with this software, it is provided AS-IS.
  ******************************************************************************
  */

#include "ia_embarque_data_params.h"


/**  Activations Section  ****************************************************/
ai_handle g_ia_embarque_activations_table[1 + 2] = {
  AI_HANDLE_PTR(AI_MAGIC_MARKER),
  AI_HANDLE_PTR(NULL),
  AI_HANDLE_PTR(AI_MAGIC_MARKER),
};




/**  Weights Section  ********************************************************/
AI_ALIGNED(32)
const ai_u64 s_ia_embarque_weights_array_u64[2435] = {
  0xbeb690b83e0f8eedU, 0xbf022f533ca31eecU, 0xbe077ec0be8a3381U, 0xbde3b0143e5ac9c0U,
  0x3d0a43483e34610cU, 0x3e2a19eabcf64b30U, 0xbe727742bdb3a972U, 0x3e3876c43d9267a4U,
  0xbc440ec0be966ae4U, 0x3d9f85e03dc80ba4U, 0xbebdb74fbe833e28U, 0xbf95cd343e1fdbcdU,
  0xbdd2f15abeea6cf1U, 0xbe32a9a8bd5de190U, 0xbe947b1b3e887e36U, 0xbe1081c73dd176a4U,
  0x3e5179eebe0e60ecU, 0x3c9c3951bd8ce3a8U, 0x3c2f0c9ebdff966aU, 0xbe234bb63e31a72cU,
  0x3dd421ac3e4f5a80U, 0xbe229d4a3cd57064U, 0xbecfbf8cbf01fbd5U, 0x3d856374be44d107U,
  0xbe1a796ebf362ab5U, 0xbd3e5b71bee66eefU, 0xbf4fccb53e3e7935U, 0xbe808504be43ba6bU,
  0xbe72bb273e0452feU, 0x3d434438be897af7U, 0xbe0df37ebee77c56U, 0x3c937dab3da61b09U,
  0x3ec7d54d3e639d9bU, 0x3c9f7c51be3911dbU, 0xbec093bcbe8a7a35U, 0xbea1d613bebfeac8U,
  0x3f5d3b8f3da8bfa3U, 0xbe958a793ecafc6eU, 0xbe738b2dbd6f42ecU, 0xbd9769e6be2cd515U,
  0xbdda74bcbd713ce0U, 0xbd0bd380be8e0311U, 0xbc0a01a1be86ebb0U, 0x3c99580b3e975db6U,
  0xbf10d4ac3e8d1431U, 0xbe32d2bcbe096c7bU, 0x3d937c34be799a28U, 0xbe85256ebe871149U,
  0xbdfcfe3cbe128e1eU, 0xbe3e846fbe342008U, 0x3e2d31203e24913cU, 0xbdc148bebe4036f2U,
  0xbc146ae03ca02060U, 0xbd9a5144bd9b807aU, 0xbe0fc14f3b8633c0U, 0xbef943d3be97b0f9U,
  0xbf43a06c3e338946U, 0x3c07aa4fbdf81762U, 0xbd7e88ec3e256556U, 0xbe7bfd743e8b3b6fU,
  0x3ccc87adbe8c2636U, 0x3d347ba93ce04f00U, 0xbdee3064be21bce2U, 0xbe8142663d9d1b5cU,
  0xbe93f9923d1b04a8U, 0xbc85c5fa3da67c33U, 0xbf9886db3d55bd81U, 0x3e15c61dbc32987aU,
  0xbc80552bbcb99492U, 0xbeb371cbbecf4b37U, 0x3b9776cb3e8fa8d4U, 0x3cd97a27bd96bd9fU,
  0xbd9a1775be0f8a2aU, 0xbb66139d3d04cdc3U, 0xbcaea868bc6282c2U, 0x3e8a26a53ebb10beU,
  0x3f4b8861be1e004fU, 0xbe64c862bd14c88eU, 0xbde79b46bda209b0U, 0xbc7d65c0bdc9656eU,
  0x3d58fa683d1479e0U, 0xbd9a2d24be07ebdcU, 0xbe3ab5ce3e0c2084U, 0xbe1855b2be8f5e09U,
  0x3b385f003df1b3acU, 0xbd7c5768bcfff410U, 0xbe1b2a0fbe73cc8cU, 0x3cc97b953e94a030U,
  0xbd32d2f13e1b290cU, 0xbeb0f1ca3e4df5ceU, 0xbe075a8abed7c8a2U, 0x3f70f15b3db5299fU,
  0xbe490b32bbd8d51dU, 0xbe1fb3fabe49b750U, 0xbe63b93e3e765fecU, 0xbe2b84793e88d42eU,
  0x3e455f7ebe6556c2U, 0xbe40abc5bdaa92b4U, 0x3ccab281bd817f58U, 0xbed4a1e33dd1c6f0U,
  0xbcc5eb903df403c4U, 0x3e7e6ad0bdf29878U, 0xbcafb6d0bd2a5160U, 0x3d4609b2bee7f24dU,
  0xbe8be1f73e9324edU, 0x3d99daf53e17b0d7U, 0x3e0ed359bdb361fdU, 0x3e0aec1f3ed56aadU,
  0x3c664fe5be85aaccU, 0xbd929c3a3e81656aU, 0xbe455746bd050740U, 0xbdf92132be2b9387U,
  0xbe89a54dbdbbd24cU, 0xbe859eddbdafde36U, 0xbe5c34883cd640b0U, 0x3e6d2eec3e3a810aU,
  0xbe378b64be4aaa64U, 0xbcadc6a0bd5c5960U, 0x3bbf43c0be81e12aU, 0xbc24c640be45461dU,
  0xbb183c90bf0fe0afU, 0x3f07fb3d3e06af7aU, 0xbee08961be33f49aU, 0x3d96b670be6f4356U,
  0xbe625601bf430738U, 0xbe3a8a9fbe8c37a4U, 0xbf8677d23e1ecd94U, 0xbe8839e0be242b6aU,
  0x3d8fdeb13de50d19U, 0x3e387e45bf9300acU, 0xbccd67a7bc81d65dU, 0x3e26f266b9817776U,
  0x3ed0a5c2be4c71c4U, 0xbc621ac4bdfead5bU, 0x39798263bf3e5de9U, 0x3c30e7603dff9650U,
  0xbe271118bdc2965eU, 0x3e1e3680be88af3dU, 0xbd8349d03e09ac3fU, 0x3d95fbe0bf075999U,
  0xbcafa830bdd8aa60U, 0xbe2528d3be94f329U, 0xbf003cdf3dd7a90cU, 0x3e2a7af7be826bbdU,
  0xbe34787b3f59af32U, 0x3e434294be606dd6U, 0x3e865e52be9226c0U, 0xbdc89bc03e7176c8U,
  0x3cea9a4bbe20debcU, 0xbe9365cd3df86c7eU, 0xbe3aafc13dca0bf4U, 0xbeef4e1a3c25d13dU,
  0xbbff898ebdba5b46U, 0x3c0562b3bd9c27b0U, 0x3aefaacd3cfcae3dU, 0xbe82a41f3e94deccU,
  0x3e7aa97cbe86fa8bU, 0xbed66ad83b96e2c0U, 0x3d3ecace3d77c55aU, 0xbb1316ed3f56d577U,
  0xbe1820eeU, 0x0U, 0xbea11606U, 0xbe03105600000000U,
  0xbe0d4e9ebd329e2dU, 0xbb552cd0U, 0xbc384a29bc7b877aU, 0xbe16e2abU,
  0x3bda373200000000U, 0x0U, 0x0U, 0xbc3f71cebe9a301eU,
  0xbd891d12U, 0xbdfc217e3d6214d9U, 0xbc0ab147bbe6610fU, 0xbdbb4621U,
  0x0U, 0xbdae702800000000U, 0xbe5cb0e9U, 0xbe4fb8c900000000U,
  0xbea5ba1c00000000U, 0xbdf6c859bd9263d2U, 0x0U, 0x0U,
  0xbe15a374bdbf3057U, 0x3e387ffe3b5c7d60U, 0xbc0b5cbbbd8ce7e4U, 0xbd3bc7da00000000U,
  0xbe3b094200000000U, 0xbe26c76b00000000U, 0xbdda61d5be0cfd00U, 0xbd4e5f5b00000000U,
  0xbbcb78003dc829acU, 0x3e03eaf1be3240a0U, 0x3e0fee7f3d66b74fU, 0xbda9352fbe534c0eU,
  0xbe5604003d14bdf8U, 0xbcbe04c0bd37343cU, 0xbdbb8557be77dbfbU, 0x3cbae7403cc16bf2U,
  0xbca7f1913d40c1bcU, 0xbdfb1236bdcffef3U, 0x3e1d687dbe3801a0U, 0xbd21c3d93e0bcf2eU,
  0x3e4ef4833d9fb0a6U, 0xbd5dea5abda2ee03U, 0x3e527dfabd89ae9fU, 0x3e4be9593dbd2ad1U,
  0x3e1686ef3e0abdc9U, 0xbbc2bad03da98ce6U, 0x3c310f20bc3059f8U, 0xbe2694b13db97792U,
  0x3e0a624bbdd55d93U, 0xbdbae85e3e74a7a2U, 0xbe2610ea3d92f6caU, 0x3e04ad79bc460fa0U,
  0xbde708323b8d1005U, 0xbe39ea37bd690590U, 0x3e794679be0fe85bU, 0xbd57694cbe1ac757U,
  0xbde1197f3d7e9294U, 0xbd255810be201d67U, 0x3e99e50bbd000860U, 0xbda381d13e44f3bbU,
  0x3dc4db5e3cca1e3dU, 0x3dcee9f63d403794U, 0xbe4b91cc3cc8f1eeU, 0x3ddcf5d13df85362U,
  0xbdf697ecbd00daa3U, 0x3e35fe233dd16012U, 0x3e5b960ebdda1611U, 0xbe16165ebecd61f0U,
  0x3e073f043d25b38cU, 0xbdf0fa43bd81065eU, 0xbb1689403e0c74b3U, 0xbd15e2ffbdc47370U,
  0x3df75eeabe39fedbU, 0xbdc015703e8644b9U, 0x3e345160bd6536abU, 0xbe07a112be10dad1U,
  0x3da250ee3e473b9bU, 0x3bf8bafbbdde8572U, 0x3da24522bf0bfbbbU, 0xbc2756cb3dcafeaaU,
  0x3a9cd882be33b39bU, 0xbdcba9043daa1621U, 0xbe415804be169c40U, 0x3dd6ca423d8cc422U,
  0xbc5432e8be2ebdadU, 0x3ba4c85a3d8faf25U, 0x3eb7e4da3dcf4b54U, 0x3dab76f9be3fe396U,
  0xbea6553a3c84f7a8U, 0xbe37be9ebd943c4aU, 0x3cf9eda43df4acbcU, 0xbeddb276bcf59090U,
  0x3d70fd443d395e93U, 0x3dc50096bd0d6af4U, 0xbac81980bc8a4b48U, 0xbdd20973be5ae13dU,
  0xbe109d02be669b0cU, 0xbc98cab0bcf9dfe9U, 0xbd211d2fbc253ba1U, 0x3d6090acbe450648U,
  0x3dcb6c41be1bf5deU, 0x3cfee4a0bd19cc8cU, 0xbd5951d83e25e3d7U, 0x3d80d56abd854c72U,
  0xbe51a95fbe463e7cU, 0xbd9c98a83c0ca96bU, 0x3d91a2c63e288a9bU, 0x3d99e49abe88331bU,
  0xbe0c352abe402c6aU, 0xbe90cc86be2e68d5U, 0xbd494674bc12e18fU, 0xbddcbf11be3a44a5U,
  0x3d206ecc3e20539fU, 0xbe0169483d2e9ea4U, 0xbe398a76bdf730b8U, 0x3e03480d3d18b1f4U,
  0x3d14cc3c3d5476bbU, 0x3d817e73bbd2fb84U, 0xbe9157bb3e2adacbU, 0x3bf5d1083d329594U,
  0xbe02ceedbc42d3f0U, 0xbe03a7ed3d7148e4U, 0xbe721a26be7cb3e7U, 0xbdc2cd00be50db8bU,
  0x3ab5e480be191ef2U, 0x3e219e17be5229a0U, 0xbe544cabbe7bcf4fU, 0x3d83a932be55f86bU,
  0x3db4177abe0ee1c5U, 0x3dbf9eb6b965aaaeU, 0xbe80dbb7be02a756U, 0xbe00b72cbe371249U,
  0x3e2d55423d94d5b6U, 0xbe06a322be2a72b4U, 0xbe53c9703d864106U, 0xbc7a9dc0be115825U,
  0x3e1bf10dbd8d65feU, 0xbe3f0e5a3c8ad968U, 0xbe22c2603e48384fU, 0xbe361894bdb471d7U,
  0xbe5adede3b1f6200U, 0xbe4f8b47be26211dU, 0xbdaac3d4be3971dcU, 0xbd813f343b280b00U,
  0xbda40e723e56adcfU, 0xbd02b8383bf15a0eU, 0x3e085bff3e2da141U, 0xbdf729a1be193c22U,
  0xbb0d33003d033969U, 0xbc8edc9abd0a1049U, 0x3d811b9b3d7ba08eU, 0xbe0b3f973e374e2bU,
  0xbe8734303d4bf804U, 0xbe00f29ebe47bd97U, 0xbe2e74dcbd020da0U, 0xbc965efebde4eab8U,
  0xba419500bd24217cU, 0xbd91e3dcbc655220U, 0xbe359509bdffd0dbU, 0xbe0de1d8be416806U,
  0xbe05902abbeb303eU, 0xbd8e625cbdffe2feU, 0xbe32c6aa3e1b2b46U, 0xbe0b29753f0e7c1aU,
  0x3e54d867bded46f7U, 0x3e4aebc73e373241U, 0x3d7349943e5a1f51U, 0x3d563dd93bc6314cU,
  0xbe10e098bc5532f4U, 0x3dcaeb51beb00ce9U, 0xbe2aedf23e5d9b7cU, 0x3de2b40a3e67354aU,
  0xbe530359bcad3e40U, 0x3e4d7cabbdf32ed5U, 0xbc59dc703ea4ca49U, 0x3b8ac6613dddeaf6U,
  0x3e5371583db8c5d2U, 0x3e61bdd63e384001U, 0x3d8ebedebe203e6eU, 0x3e42384dbdf17a8bU,
  0xbdcf9a3f3ddb6c41U, 0xbe26e5ddbdf46ee6U, 0xbf3033a73d8b7c6aU, 0x3e3e8d99bdc0f671U,
  0x3ddbfb37bcf0ec60U, 0x3e3246593dbfa77aU, 0x3dfd5b2ebe04d7c2U, 0x3ef1b4c93cf50318U,
  0xbe0ae30abe03a164U, 0x3e1946233e00baffU, 0x3d912ebabe03f9e9U, 0x3e2f7d493e1957b7U,
  0xbd92fedcbe2d7485U, 0x3e306ad53ce1700fU, 0xbd9f3ea03d5b2adbU, 0x3de67c6abe699f68U,
  0xbe1da6573d1636bcU, 0xbe4f858e3ddc7ec6U, 0xbe40cab13e55a30bU, 0xbe123c2a3c780c94U,
  0xbd28d408be158548U, 0xbe71a9edbdd8b98dU, 0xbe5368833d6c3bccU, 0x3cbce940be9839e8U,
  0x3dbf929ebd9e54f8U, 0x3d72de19be27cde8U, 0x3e4021c33d531d5fU, 0xbe451f1abe060e6cU,
  0xbe15b1bf3e23f365U, 0xbe5459c73cb2a63cU, 0xbd390d60bdb86f92U, 0x3d7b31a4bd1c8d44U,
  0x3dcf0a133caeeea5U, 0x3d20c3ecbd6e90d4U, 0x3d8e525e3d05544aU, 0xbd118d7e3d09c324U,
  0xbd0165d8be00714bU, 0x3e11da6d3e145a3fU, 0x3c887eabbe6ce5afU, 0xb995326c3c353820U,
  0x3cb0cae83db0ca57U, 0x3dd3f20a3c558440U, 0x3e3747393e108059U, 0xbdba016dbe09d498U,
  0xbd6a8b94be33a5acU, 0xbdddc9843d80b002U, 0xbdfd9139be5b3e27U, 0xbde56381bef0cd12U,
  0xbe4db38ebe1e7ab1U, 0xbdcf130a3e3960e5U, 0xbe19de2abdb9db7eU, 0x3d881945bd95ea87U,
  0x3e0f8201bdeb183dU, 0x3e329780bdbb86acU, 0xbd04a384be2f4893U, 0xbb63d6003d3949e2U,
  0xbcec6e18be52bf0eU, 0x3e3f42613df7e01eU, 0xbe262572bd772438U, 0xbd4ca12b3d9be75aU,
  0xbe288107bcc34238U, 0xbdb7d0213d06c5e2U, 0xbcedd7c03e372593U, 0x3e41f4f53e201d09U,
  0xbd277cc83e2c0ad9U, 0x3c3ca7e53da3da3bU, 0x3da7e9c3be074354U, 0xbe0a10ff3e0bbd81U,
  0xbd8ec8703d5624a4U, 0x3d172b8ebcad4ab0U, 0x3de243283d2ca77cU, 0x3cdba7babdc1dc35U,
  0x3d67781c3d6882ecU, 0xbe240880bd8c5046U, 0x3db915d2bdfa3025U, 0xbe43eba13e1e50adU,
  0x3e0282803da96281U, 0x3e048005be7858c9U, 0xbe7b14febcf04b9aU, 0x3db75066be40d780U,
  0x3d86cbbdbe3cc4aaU, 0x3e147e39be1b5c9fU, 0xbe13103cbd1d6838U, 0xbe0e20bb3e29a19dU,
  0x3c4f5300bd7a33f8U, 0xbd71abfabd687611U, 0x3e3f5c533e0e4113U, 0xbd1889bcbe36c126U,
  0x3dc2d72abe25b9a6U, 0xbe101852be511135U, 0xbca25530bc86ac27U, 0x3caed509be1e6584U,
  0x3d657885bd15eee4U, 0xbe83661c3d33ef2cU, 0x3d7ed6843e31a72dU, 0x3e196e033e497ffbU,
  0x3e0a1b023dce8f4dU, 0xbe5b89f8be573534U, 0x3d538a1e3ce9993fU, 0xbe63dbe03d5a4534U,
  0xbe773ed53d81b4eeU, 0xbdf025a73dda829eU, 0xbe6e5a35bcd7862cU, 0xbda3b7f23cdc6c28U,
  0xbe052e84be0fabe3U, 0xbe0945d2bd9c5adaU, 0x3e3dddf3bed82f0aU, 0x3d9642edbdaa2f54U,
  0xbda3d7bdbdc58f82U, 0x3e02c64b3e222b74U, 0xbdb754fb3e8a73b1U, 0x3d5c974c3e924086U,
  0x3d2ad800be058632U, 0x3dbf03f6bdf11e1fU, 0xbe34086cbe3f27a5U, 0xbdcef26fbeb5f7c4U,
  0x3d91ea2a3e61df6fU, 0x3d115e0cbd9f3eecU, 0x3d9522113d399e0eU, 0xbd4cecf4bfbb1414U,
  0xbdfc02dc3e397ed9U, 0x3d6273edbd605bc8U, 0x3e593bd9bb1fd54cU, 0xbc604d2dbe480954U,
  0xbdd72b533d5038f4U, 0xbe1bd768c004121bU, 0xbddc247e3d62dfacU, 0xbdd4ae2dbca3b0b0U,
  0x3d4fdec9bc0bf19cU, 0x3c99f41fbdbd8e91U, 0xbf053f8cbe3575cdU, 0xbf032eb3bd02cb08U,
  0x3e0a17383b51e800U, 0xbd116a623e20948dU, 0xbdf4220cbdf296d6U, 0x3ef505813d198204U,
  0xbe3d3e6fbe242d42U, 0xbe3e6efa3e21e90bU, 0xbe0c650a3c3fe655U, 0x3d5b8a743d31c07cU,
  0xbe35e1b5be395f69U, 0xbe436215be4d45c2U, 0xbdfc6ed73d882692U, 0xbde14385be74ae6bU,
  0x3e3407fdbdcf01e8U, 0x3e05bc3fbbd33340U, 0xbd86606cbda8f796U, 0xbc57c3903cacb8e1U,
  0xbc756c003c50cb10U, 0xbe2080a33de776a0U, 0xbe061108bd8dc48eU, 0xbe593e34be435f7eU,
  0x3da7697e3e30f5e9U, 0xbc81fe58bcd7d530U, 0x3e380327be714afeU, 0xbe4aacb23e3e4913U,
  0xbe001cfe3d41a454U, 0xbe06df1bbcc2a213U, 0xbe3d286ebe55a219U, 0x3e1f8d21be395278U,
  0x3e033b68bd776830U, 0x3d81c517be31f6fdU, 0x3d3071a3bda4ea4cU, 0xbd4bf2ec3e01d769U,
  0xbd90ac9f3d0e2cacU, 0xbe1f7bcb3d137d74U, 0xbd9c5ede3dccbbabU, 0xbe400dfd3a3f3b00U,
  0xbe00c850be118a75U, 0x3df1aa2ebe44d541U, 0xbd44c8dc3e1757a8U, 0x3cf07620be1eaa60U,
  0x3e6eb3b73e159046U, 0x3cc5a308bf473939U, 0x3c40d45abe8c0405U, 0x3e2ed775bf343fedU,
  0x3e55a426bdc76d3aU, 0xbdaafd3a3e19d89bU, 0xbd0a6a083d6a30fcU, 0x3cf6a3b9be36c913U,
  0xbe4f82913da98306U, 0x3d917dd23db9bb2eU, 0x3e51b3d9be48fa8aU, 0x3c7235103e862f6eU,
  0xbd6da82c3ded9afaU, 0x3e41480a3de227b2U, 0x3de2650abed1ca57U, 0x3e1c5716be456824U,
  0x3dbadb01be372431U, 0xbc6811073d9ed9d8U, 0x3d2309643d898596U, 0x3e15c58fbe2ea5eeU,
  0xbe10f5f3bf1abce6U, 0xbe238c4ebe35ff83U, 0x3eac2f43bdd09822U, 0x3dd26e51bd688948U,
  0xbf44262bbe2a12a4U, 0xbdc81d393dcfe07aU, 0x3e03ccfd3e44c0efU, 0xbe76d64d3d490cccU,
  0xbdfb8c0dbe19beb1U, 0xbd6762c8be426f29U, 0xbe5b843dbe1d005bU, 0xbe13f66ebddc0589U,
  0x3c919878bddccc63U, 0x3d7e2984be419211U, 0xbe8b8be3bdd28920U, 0x3e21ea97be162860U,
  0x3d6ddde5bcca9cd8U, 0x3e3a01753d87e616U, 0xbe2c339abe527050U, 0x3dc94e953e0cbfe8U,
  0x3e26aef73dbf123aU, 0x3d132c913c2d27f7U, 0xbd4980d43daee581U, 0xbc2123303d774880U,
  0xbdcb51b23e28eb2bU, 0x3d9409ae3dfe21b2U, 0xbe5b18d3bb3d5704U, 0xbc8b5396bdb5718aU,
  0xbd43098a3e3f9d85U, 0x3e20a6e73e48f534U, 0x3da049023d995a4eU, 0x3e52b1bdbe2a2b56U,
  0x3bfa6375bc1c4511U, 0xbe9b71d3be06a462U, 0x3e9d1cef3e5c05d6U, 0xbe132c153d360e04U,
  0x3db2968d3e17a711U, 0x3dd982403e455b61U, 0x38698e183d951765U, 0x3dc0c8053d336354U,
  0x3e3f77a1be2dcebbU, 0xbe27d5ff3c4dc080U, 0x3d93a6223d42f554U, 0x3e09e23f3d14665cU,
  0x3e373bcdbe74cca1U, 0x3e329747bdb32214U, 0xbe000dee3db5ef84U, 0xbe46d15ebcf0acf8U,
  0xbe44381c3dd1cbfaU, 0x3dc6427abe54f997U, 0x3e379c113dfc340eU, 0x3ba4dba03e32415fU,
  0xbd1ad0c83d27d00cU, 0x3e59c941be467c6dU, 0x3e453349bc8f94f0U, 0x3e1e3829be2b3c40U,
  0xbe18581abe48566aU, 0xbdec1bfbbda8ec16U, 0x3e37196b3dab423fU, 0x3d9c46823e32d78bU,
  0xbe1be4023dd0024eU, 0xbe27960a3ddf9ffbU, 0xbe4718043dc330f6U, 0x3e27cdf13e381d87U,
  0x3e636923bc8de50aU, 0xbcd9967ebe4b675cU, 0xbd7260bebe55e3b0U, 0xbe651e0abcbaf268U,
  0xbe48844fbe5ce1e5U, 0x3ae50980bddc8f95U, 0xbe6d9627be5892b0U, 0xbde84d30be0ea32aU,
  0x3e37128dbdf3b607U, 0xbbdb61c0be164bd8U, 0x3e02dbe1bd6fce72U, 0x3dac9af63d4265ecU,
  0xbccae27dbe2584ffU, 0xbd1f698c3d065a20U, 0xbe6d0d703e17ce29U, 0x3d47ae1cbe543433U,
  0xbcddba3d3e12abcdU, 0x3cd85c803db660d6U, 0x3e22a7cd3c6b1150U, 0x3e35babdbd105be6U,
  0xbe53ece83ccdcec3U, 0xbe794d73bd9e3fb3U, 0xbcbabd4bbccdad40U, 0xbc1f3130be816ca4U,
  0xbd2e7a20bdff1c1cU, 0xbe0800883d2a17ccU, 0x3d9ede823e178a63U, 0x3e2c9f1e3e1b6d63U,
  0xbe708dee3b39b480U, 0xbdb32780bdb86f28U, 0xbde80d56bd3b3d60U, 0xbd0b4bf43dab9142U,
  0xbd2419353d71b20eU, 0xbdfd7ecdbe788a92U, 0xbb67eec43e01a8dbU, 0xbb73100dbd9fe202U,
  0x3e14ddbcbe114266U, 0x3ddbd6fdbdd5364eU, 0x3db56c8abd02a75dU, 0xbcd4a0293d267694U,
  0xbe0e0f0cbe80b52eU, 0xbe2899ccbd2b49bcU, 0xbe25aa74be83415bU, 0xbde2cd30bddb1c08U,
  0xbcb40cbabeaa049cU, 0xbbe22d20bda7e844U, 0xbe1be8aa3df97c2aU, 0xbdbce5273e39891eU,
  0xbf86b21c3e2d4659U, 0xbe0bca023e475453U, 0x3e22f783bc82c7c8U, 0xbe5255c73bdf390aU,
  0x3c469490be71d283U, 0x3d58a7fd3dc0c569U, 0x3dc8d5763e03c723U, 0xbd2b1888bf67c618U,
  0xbd2df898bdf88178U, 0xbea866b23d604944U, 0xbd45afd0be39681eU, 0x3d4446123e0c559dU,
  0xbe1066bbbe49808cU, 0xbe6619fb3d3af392U, 0xbe051ea43e1cad7bU, 0x3e0b35eb3d359a24U,
  0xbe2914fcbd5aa28fU, 0x3d9c5ceebef229d2U, 0x3db2aedbbe5254feU, 0xbd1cc4c23e5b070fU,
  0xbd5e2e9a3a494500U, 0x3cb9c552be2c6198U, 0xbcefdf2a3d36b7b7U, 0xbe0b41cfbddfdb3aU,
  0x39bdb600bd34caa0U, 0xbdf84e89bd8d87aaU, 0xbe0ea2c8becdb6a1U, 0xbe3e447f3e3e74bbU,
  0xbe561a1abd02d0b1U, 0x3e3d950d3ce1b137U, 0xbdbba7ea3d9861f0U, 0x3d81229abddc7a4fU,
  0xbe862e10be53ca05U, 0x3d044554be40c389U, 0x3da644aa3b849700U, 0x3e40f74cbe1b9961U,
  0x3de262dabdc95152U, 0xbe0a54443e352cb8U, 0x3dbfd14b3e192888U, 0x3e3e95c33e488752U,
  0x3dc45ad2be369a5fU, 0x3d93c723bcba9890U, 0xbe4844073da03af9U, 0xbe8772b7be0b9220U,
  0xbe6cfe453d4fbe4cU, 0x3d1ead64be23bc2fU, 0x3d895a263ca18520U, 0x3e4ea1d13da4a28aU,
  0xbdc199afbb7052e2U, 0x3e1cbfbc3d248b21U, 0xbe2ffdd1bd224c9eU, 0xbdaa7aa9bbbe7f40U,
  0x3d68dc833e5d27e1U, 0xbd8f481c3e4ed4e9U, 0xbdbccf663db62a89U, 0x3d1eb71c3e38f4c7U,
  0x3d58af5c3dde7916U, 0xbdb45d26be1cdb87U, 0xbe3b91afbdcfb231U, 0xbd9f47b53b6dde80U,
  0x3e051df9bd4f16c5U, 0x3e01ed99be6d5abbU, 0xbe44b8083d625b28U, 0xbe1856d4bb174d8eU,
  0xbe28b39a3dca5aaaU, 0xbd65eab83e595f1dU, 0x3e02525fbe4e371fU, 0x3d374f4abb4c92a5U,
  0x3ce4b0b8be036c87U, 0xbe11599ebe102599U, 0x3de0eb433e2c3de6U, 0xbd0397403dd230ddU,
  0xbc1e9d90bc047d70U, 0xbe7362dbbcfe6878U, 0x3d923a62bd9d831eU, 0x3e0b7edc3d97d70aU,
  0xbe2092b53e0ac8ebU, 0x3dd2de33bb305e6cU, 0x3e3e8f05bd21a730U, 0xbe4635d6bdb1cf4cU,
  0x3c0c42c7bb6cc1b9U, 0xbe79e03d3e3355d3U, 0xbe996c89bd56fb32U, 0xbe7ceac5bd265fc8U,
  0x3da013d63e03c7afU, 0x3a115066bda4b760U, 0xbe8b82dbbc9f2997U, 0xbe298e543df259c2U,
  0xbd02a0a83dbdc9a7U, 0x3dc907563d99533aU, 0xbe12342c3cfe2038U, 0xbdf48a373e02bef3U,
  0xbdabe892be9b3e03U, 0x3dc6f75e356c86e7U, 0xbe5782133daefb36U, 0xbe57b808be2df921U,
  0x3d2cb43c3dfe27aeU, 0xbd2a964cbdfb8286U, 0xbd7c21b03d2f929cU, 0xbe3a367a3cd0f0c3U,
  0xbe501446bdbed42bU, 0x3e2fc0633cde4a00U, 0xbd1afd10bd915ea8U, 0xbe0c29263b0d9d5aU,
  0x3db295523e2a85c1U, 0x3d651ec13d53c574U, 0x3d8a720e3cdd7ec2U, 0xbe58721e3e448147U,
  0x3e2a0f873e0f025bU, 0xbd82b2e6bd88fca9U, 0x3d144dac3dff460aU, 0xbdbe92c13d905f66U,
  0xbd96605cbe6dd89cU, 0xbd63892abd7ad06fU, 0x3df2b863be3855a1U, 0xbe03a3d5be3b42b0U,
  0xbe43fd893e35976fU, 0x3c9bb6303c368a80U, 0xbdef6c3abe6310bfU, 0x3a8a81f23e4c4f83U,
  0xbd80be68bda17b49U, 0xbd16ea0cbdc3b30eU, 0xbd8bf31e3da708b1U, 0x3e2ebe89be4503dcU,
  0xbe2193edba111055U, 0x3d81ae32bde0d54dU, 0xbc73f0adbe0dd467U, 0xbd8c2822bf3e9929U,
  0x3d4e0b1c3c903f18U, 0xbe1dde9a3e12616fU, 0xbe1da82ebd9bcd96U, 0x3c2157b43d7e126bU,
  0xbd6103bcbdbf74d6U, 0x3e7cea993e0c5f24U, 0xbd75221bbe533788U, 0xbe09d0ca3e9fe8d1U,
  0xbe04ac9cbbdd2d20U, 0x3dfbc364bdf44debU, 0x3cdaa560bed1df28U, 0x3d599da53dcc6ebaU,
  0xbcca9bd3bd71d6dcU, 0x3c2f55343e61e0ecU, 0x3c4c1330be33e46eU, 0xbd75f7a03d3570bcU,
  0xbe49633bbe572ba4U, 0xbdfc21c6bdbceec4U, 0x3f09ec673c592b67U, 0x3e39e8a23cf58ce0U,
  0xbf010fdbbd9aa6acU, 0x3c52321b3abf8180U, 0x3e38b78abe359a55U, 0xbe03441cbdd7d519U,
  0x3e407e5dbe53cda2U, 0xbe0552dc3dccc5f2U, 0xbe3aecf7bc2c6c00U, 0xbe2d39dcbe3b3a6fU,
  0xbd36d900bc468db1U, 0x3e5cb7f33da07d52U, 0x3de605d6bdc9ff5aU, 0xbd35aa88be4df3a1U,
  0xbe3dd0443e210611U, 0x3d40ae5cbb959f00U, 0xbdc80544bd9dddc8U, 0xbe19bd1e3d5c7fc4U,
  0x3e02a2f3bd6a7f0cU, 0xbd1040bcbe471ea8U, 0x3e13332fbcfdf418U, 0xbe47f8dcbc826049U,
  0xbdc5f89e39e91200U, 0xbd628f483d3caf7cU, 0xbe1f76b4be195a41U, 0xbe302fa23daf336eU,
  0x3e0072d93dc09b5eU, 0xbd770c513dcd3220U, 0x3e5020c73e298d0bU, 0xbd4378303e34fdcfU,
  0xbe478835bdeefda3U, 0xbe0161c53e198223U, 0xbdc6da1dbdf29261U, 0xbe1fd950be15ee26U,
  0xbe38b52a3e2fb165U, 0xbb2ec580be098f07U, 0xbc48ea2e3df096baU, 0x3cfc5b68be3b579fU,
  0x3d1d854c3dac2c45U, 0x3e03d2e9bdf20d09U, 0xbd98f3ee3e364b41U, 0xbd46b584be28e2caU,
  0xbdc25ede3d8299acU, 0x3e33d1d9be71374bU, 0x3d9bc7febe358acbU, 0x3e433c07be112088U,
  0xbe6185d13e3ea8efU, 0xbcd944603d3ec00cU, 0xbe3c9dd03dac351aU, 0xbe5631fb3e102fd6U,
  0x3e4daef1be341006U, 0x3e1bb8e9be2b22dfU, 0x3d0d950cbde58ef1U, 0x3e4a7e093da8bd8aU,
  0x3c7d8010bcdf6030U, 0xbe2d44fabc6c4290U, 0xbe5b5708be3906b7U, 0xbe6dc8683e4a06fbU,
  0xbe67d6e93d6cd42cU, 0xbd4da106be8172a8U, 0xbd0e2908bddbe654U, 0xbd065274bc86c948U,
  0xbe160ae1bbe250f7U, 0x3e3cfe14be23272fU, 0xbb44ad6c3e018bfaU, 0x3d16d8d6bdab214eU,
  0x3dd4faf3bd57579cU, 0xbe5f68823b3965c0U, 0xbe63dd80be235d00U, 0xbd88f6293dcb9bf6U,
  0x3cee53283d41960bU, 0xbe0949ec3cc9a370U, 0xbd4c7dfcbe7c0958U, 0x3de7ba7fbe0ee563U,
  0x3daee9a9bdb1f11cU, 0x3e22b0913c8f45a1U, 0xbec1a9e1bdad643aU, 0xbd8054003c1cf658U,
  0xbe23226fbda090f2U, 0xbd2240243e532e95U, 0x3da56942be227252U, 0x3e17518cbd818c5fU,
  0x3c891518bd982f90U, 0x3dd5c1e03cf6d740U, 0xbda5ee383d4cbfdeU, 0xbddec77bbdc4092dU,
  0x3e47cafdbe2a9b72U, 0xbe1910673de11096U, 0xbe1dd140be340da7U, 0x3e05dcf53e2b9eebU,
  0x3cdfb8a03d89670eU, 0x3e056d053c1a517fU, 0x3c93ef68bc86ae30U, 0x3e556cd33e43b0b3U,
  0x3cc93e03bd952edeU, 0x3dc55868bf0ccdbeU, 0x3e469297bd04db50U, 0x3ea027a6bd2132f8U,
  0x3daf7af7bd77c24cU, 0xbde5ca9a3a443200U, 0xbd21c754bdd7b7c1U, 0xbe516e733dae6ff2U,
  0x3deda9aabceb9616U, 0x3e1f74113d9d525aU, 0xbd832b983ba5a36dU, 0xbd51ea46bd045838U,
  0x3daeead03d39c19cU, 0x3cbb9c28bda53391U, 0x3d186939be7de9b3U, 0xbe378abcbc4b427eU,
  0xbde63677bdcec093U, 0x3e10e1f9bd9d76feU, 0x3de379c63df35572U, 0x3ddcf3bebe316e88U,
  0xbe4e095c3c87b8d2U, 0xbe17e7b8bd35f39eU, 0x3e3e2d7f3e480001U, 0xbdc5e0583db05113U,
  0x3e0dca47be004670U, 0xbe109d703dd40dbaU, 0xbe19b522be5b3ac8U, 0xbe4a1affbe37d5b0U,
  0xbe86dcfd3da184caU, 0xbd58b88fbda0faffU, 0xbd9d0d5e3dd2080eU, 0x3ae6cb803dd3b942U,
  0x3e26c710be61de9bU, 0xbd8d2af83da74e49U, 0xbdb679debd9215f9U, 0x3d86bd3cbde7a811U,
  0xbd044427bce63060U, 0xbd64a537be127990U, 0xbe6caa27bd3d39ceU, 0xbe8c14773df431eaU,
  0x3d5f43f43d91a4d8U, 0xbda6b2ac3e3f043fU, 0x3d78006cbe37727aU, 0xbdc91d1a3e3511c7U,
  0x3b10b175bcf7d507U, 0xbe5a733dbd28caa0U, 0xbe77dde4be817b78U, 0x3e41d5593c26fba2U,
  0xbe8a1b753de0b2eaU, 0x3c8feac8be459668U, 0xbd1a21403e0aa427U, 0x3e5a167d3d14d948U,
  0xbdbb15febe0542a2U, 0xbe807d78bd888053U, 0x3e010029bc56a520U, 0xbe5281b4bda148b1U,
  0x3dd43ac2bcad79c8U, 0xbe3a7440bcbcabc0U, 0x3e2b7e25bdf340aaU, 0xbdd9c21abe5d2db3U,
  0xbe24d2a83b484300U, 0xbe0540eebdcc30b6U, 0x3e251697bd3e842cU, 0xbda518be3e55232bU,
  0xbe0a7ccbbd3f1cb4U, 0x3bbdf7b33dc18e3cU, 0xbe7a9dd6bdd59af8U, 0x3d03f1b23d9339d6U,
  0x3d1314e83c8f6ea0U, 0xbe123ed53d785234U, 0xbd04f178bdd45e5bU, 0xbdf4c70bbde3d475U,
  0x3e249f373c331c88U, 0xbbc91d40be28c134U, 0xbd66dd5cbdc4a02cU, 0xbe26c5943da802beU,
  0xbcbb180bbe6c467dU, 0x3dd0a7e63dca7e43U, 0xbe051ee5bd9136c3U, 0xbda957423cb12ee7U,
  0xbd9f909c3dc6d7feU, 0xbe56c6c6be13f342U, 0xbdb8126abe0a8fedU, 0xbe28dc56be4bedcfU,
  0xbe1d0dbabd35e404U, 0x3c3f976dbdc3b87aU, 0xbe0dd5893e223e21U, 0xbce20fb8bd2816ccU,
  0xbd96d6803da0fce6U, 0xbea12827bdbdbb47U, 0xbd000614be1e4794U, 0x3e2a42e9bd833a12U,
  0x3d2aabe7bd17f090U, 0xbc72dac7bc5271a7U, 0xbd843546bd02bc34U, 0xbb2d63403e1eb939U,
  0x3e281da33cc4670aU, 0xbe805066bdad13aeU, 0x3d2c398f3c8220fcU, 0xbdccdcbcbe23fcc8U,
  0xbe2828bc3e3ee357U, 0xbdfd2299bd4bd2acU, 0xbdf5a75bbe7df0d1U, 0xbea13ba8be5b1f9bU,
  0x3bce85203e10b458U, 0x3e22d28f3d0a37ccU, 0xbd36816cbe309503U, 0xbdd2dea53e2dac7dU,
  0xbeb79f30bc461985U, 0x3dd89d8ebecc9099U, 0x3e0480a8be8ad9b2U, 0xbe46a541bd31ed19U,
  0xbdaef5223dab3baaU, 0x3e134d05bdd13d83U, 0x3dc37b26be12d0e4U, 0xbe2fa915be6067eaU,
  0xbc69dc90be163a73U, 0xbe45e6353d8ac970U, 0xbdf2f3d13e0f4391U, 0x3d55f7fcbe54f5d0U,
  0xbc29f7b03a8da980U, 0xbdd278f03c1284a0U, 0x3de7d056be65ecd2U, 0xbce95e27be3fbb38U,
  0x3d3d0221bd5d28bcU, 0x3e015b0ebd2406e1U, 0x3d805c02be5155f6U, 0x3e41fa55bd23c474U,
  0xbd76050bbe82a782U, 0xbed4b8e13d8746a3U, 0x3ecd8eb03e15a68cU, 0xbd87afd73ce712d8U,
  0xbe04fb52b9b76200U, 0x3d7093c33e364487U, 0xbdd335e33e4c21d1U, 0xbeb403db3da47c4aU,
  0xbc9af980be9f5acdU, 0xbe47d3c5bde99ee0U, 0x3e42de07be3654c9U, 0x3b85d05abd576438U,
  0xbd56164fbe1f5034U, 0x3da52fdabd0b908fU, 0x3d94657fbd6ebb68U, 0xbe29e977be39b55fU,
  0x3d8e5037ba665600U, 0xbe00e2263e5156b9U, 0x3d4ca9f43cb36090U, 0xbc2bfad03ddecb9fU,
  0x3d10fd143e101692U, 0xbe14a81e3dd28ff5U, 0x3dd6e636bcd17a78U, 0xbe124924be70f998U,
  0xbe2ec0193d3ec2e4U, 0x3cb601fb3dcd2d76U, 0xbda945963d356048U, 0x3cfe46963d53a9dcU,
  0xbd29679d3e4ecf53U, 0xbd69f8d4bb7a8113U, 0xbc485b40bdbcc461U, 0x3e5b57e9be57f52eU,
  0xbe0aaef9be6997f4U, 0xbe62e7fc3dd25830U, 0xbcfedf9cba75cd20U, 0xbd17f793be13b5d9U,
  0xbd7ae12bbc9b7380U, 0xbe6209a7bdec0d47U, 0xbe02de17bdfa4d04U, 0xbe23429ebe4939f7U,
  0x3d9e6f7ebd44420bU, 0x3dd7abaa3e00725dU, 0xbd23d4503c9a6aedU, 0x3dda4af8be176d3eU,
  0xbe28611d3d22a999U, 0x3df1c0ce3d2385c2U, 0xbe284e993d72cf7dU, 0x3db0d09a3e799ebaU,
  0x3d9483c4bda70e8eU, 0x3e546abd3e1bb2c7U, 0x3b215ac0be5d5c24U, 0x3e4dbb46be8035dfU,
  0xbe4b2777399f432fU, 0x3c78532abd9060a9U, 0xbdabaf43bc9926d7U, 0x3cecb518be627c48U,
  0xbdc5fc4cbc7d2360U, 0xbd455e833e1bc755U, 0x3e1c825d3e9fb300U, 0xbe106a3a3e5c5b95U,
  0xbc77913abcbec398U, 0x3e0606fc3dea219cU, 0xbe20e8723e0ed6a9U, 0xbe0dd3353e42bdcfU,
  0xbec86d9c3d7c2d56U, 0xbe2d8b4fbe25e51eU, 0xbc1469183e160434U, 0xbcf980c33dfd0f0eU,
  0x3e56920bbe0c22c0U, 0x3d3e34703d1cfba4U, 0xbde29054bcb7d599U, 0x3e9b93e0be179cfcU,
  0xbd279abc3d2011f7U, 0xbe27c95fbe3ec0feU, 0x3d839deabf043940U, 0x3d8c44dbbd41d724U,
  0xbdea497cbdbe2e90U, 0x3e4e51c33e74e421U, 0xbdd5ed503d7f2987U, 0xbdfb2b6f3e612cd0U,
  0xbdb900d238e9f000U, 0xbd941c68bd312550U, 0xbd56e81c3c9f52e0U, 0xbd8e0645bf3a5b35U,
  0x3d3bddecb9f45c97U, 0xbda51df83e2b3784U, 0x3ae69b57be292e7dU, 0xbdc0e255bed6e7c7U,
  0xbe4c77663d22cb24U, 0xbbc91f073e174089U, 0x3e47fae33ebaf3a1U, 0x3c20160d3cf451c0U,
  0x3dc456afbe2ff210U, 0xbca3625f3b109071U, 0x3e2375ff3dfc5f0aU, 0x3e107fbbbd94488cU,
  0xbd06ce043e619351U, 0x3e568df53e6936bcU, 0xbea5e5aabdf9932eU, 0xbc9b2963bd7a6eacU,
  0x3e9abcaebe0c318aU, 0xbe0e031d3e591bf5U, 0x3d20cc863c6666beU, 0x3e9ba85fbdb13a20U,
  0x3e351d7fbe7ae978U, 0xbd7e130cbc2e7ee0U, 0x3e28219dbd192b58U, 0xbcc6542dbd3c2bb0U,
  0xbe877aa9bce8809dU, 0x3de38fa2be8197c9U, 0x3dac7edcbea23fa5U, 0xbdafd17abe73ac67U,
  0x3cab89b63a4cb800U, 0x3d03df903e0d549fU, 0xbd8bd8a6bd84b580U, 0x3dd6a80ebcbd6c82U,
  0x3e4b8301be51c5b8U, 0xbc766004be55f2efU, 0x3a5f4fcdbcd40b91U, 0xbc8e1c503e9f781aU,
  0x3de39ffabddbc951U, 0x3d115b513dfd7956U, 0xbdd8d9da3dbb0ae3U, 0xbe0a85d8bcdbcd40U,
  0x3b9228ae3c9c65f8U, 0x3d3cdbf53d6075d9U, 0xbdf281623dec76c6U, 0xbddb90293e41ca83U,
  0x3dc80e7cbea0bb88U, 0xbf569996bdb36b21U, 0x3e2e94a9bd01b9feU, 0x3e2b86cbbe38ff0cU,
  0xbe91df493e358203U, 0x3d7010583e243eedU, 0x3e3232213c297c6cU, 0x3d8d86f63e1535cbU,
  0x3e55bfadbd5275a7U, 0xbd7aac7c3d2071a4U, 0x3e589a6bbe77cd97U, 0xbd1656c43e13107dU,
  0x3ce372f43c72ae4dU, 0xbdb8a120be8ada59U, 0x3d658bafbd5d6565U, 0x3c398fb0bcc2ca8dU,
  0x3debe563be43a9c6U, 0xbdebd973bd957584U, 0x3df1be723b26b4c0U, 0xbe2212c3be3c1f6eU,
  0xbc6014003c543bc4U, 0xbdbef5d13d77d14cU, 0xbe20a50ebde1459bU, 0xbe21a1debe855015U,
  0x3e140bbfbd45db2cU, 0xbe497c12be0f38eaU, 0xbe319322be27b8eaU, 0xbd8b007abc666630U,
  0xbdb041c2bdc0d09bU, 0xbe20aeedbc6bd511U, 0xbdd8bea73e33dad5U, 0xbdc9a04ebd15340cU,
  0x3c1d0656bc31fbd2U, 0x3d5ac48d3c92335fU, 0xbe2cfb1b3e09ec0dU, 0xbd0ea2f23e27774dU,
  0x3d20e1193e0f86e3U, 0xbb8ba4b9be49b5e6U, 0xbdab43cfbe85d0c0U, 0xbe26340d3e06adf5U,
  0x3e1ce0af3dfb794fU, 0x3e1b223b3e19c737U, 0xbe4046fd3e068e6dU, 0xbe3b440ebe26cb38U,
  0xbda4b5b2bd8bcf1fU, 0xbe29a50cbe83f942U, 0x3e2bf151bc82830bU, 0xbcba6c283e9a6635U,
  0x3dd0dc923da694a2U, 0x3baa24c0bd8e4dbcU, 0xbd9b69aa3e200743U, 0x3dd976f2bd0a2387U,
  0xbd73f77c3d3f7d53U, 0x3e4f87c9bf101817U, 0xbe369e283e2a308fU, 0xbd34eab8bd27358eU,
  0xbdfd40793e493815U, 0x3bd7e997bd86fe12U, 0xbdda3eca3eaf4a30U, 0x3e100b90be5c0d50U,
  0xbd4fceed3be11120U, 0xbd604f843db12d92U, 0xbd69355c3e53ba33U, 0xbc4019b0be06c836U,
  0x3f540e623d693728U, 0xbe8938cc3e693708U, 0xbf03bd9fbe48398fU, 0xbe4cf1093b42a100U,
  0x3e7524273c88d588U, 0xbbcf4dd63d39f1a4U, 0xbd0d3ded3c7ce670U, 0x3e2b13293e410c63U,
  0xbbe30d80bcf5266bU, 0x3e4454753d9cd406U, 0xbe04d4723e4f5c69U, 0xbd7057b03dafb526U,
  0xbe4a8449be795eaaU, 0x3cc63ad0be1e6b3dU, 0x3e1c660fbe52dd01U, 0x3d30c73cbda185c1U,
  0xbe4331793dff858eU, 0x3c6ceda0be013468U, 0xbdd8eda93d99033eU, 0x3db0f076be4966f8U,
  0x3db3885e3e519201U, 0x3e106efbbf07d76cU, 0xbe2404363dd4282aU, 0x3e157aff3e14ab77U,
  0x3daede423e5b2bd3U, 0xbd94783ebd8059b4U, 0x3c7f3340be38c87aU, 0xbe5ac403bdbf9474U,
  0xbe4329ae3d8d5732U, 0xbe1c123d3dffaa8eU, 0xbe11c94cbb3c3540U, 0xbe4da686be0743e4U,
  0xbe0b1b77be8c8dfdU, 0xbeafdaf83d673dd4U, 0xbd1f6fb7be4d5301U, 0xbd876335be03a4a2U,
  0xbf14ebb6be323debU, 0x3cc8ded83da86b3eU, 0xbd733f2cbc365d40U, 0x3e3ae26cbcb38238U,
  0xbd21bc303d19aef7U, 0xbe3331e13d1d4c64U, 0xbe31234cbe0e491fU, 0x3e514775be30f5a0U,
  0x3e019b93be6b0df6U, 0xbca222183df1f7c9U, 0x3e2401b73d71817eU, 0x3e2905b3be2df823U,
  0xbe4387e9bd446048U, 0x3dcc56b2be031292U, 0x3dff95f2be0ae3a9U, 0xbd5306b8be4826b2U,
  0x3e4809993e2059a9U, 0x3e15ebb8be35f60eU, 0x3e48b955be0139ceU, 0xbb5bc640bdd58bbfU,
  0x3d0293fc3c06fb40U, 0xbddaddc2bd4b8b9cU, 0x3cf89888be5eb4b7U, 0x3b9d90563bd91100U,
  0x3d2627383de080aaU, 0xbe072fdebe57002cU, 0xbe0d6e693c536d50U, 0xbc1dba003e12b017U,
  0x3dc23e8c3dbe4cebU, 0xbce731443c3e9713U, 0xbdb684ab3da9841dU, 0xbb18441a3e56f61fU,
  0xbc4c74f73c93bf70U, 0xbbc0e4e0bdb366a0U, 0xbe4341573d83b9b4U, 0xbe0b10a93d09e594U,
  0x3db97beebeeca0e5U, 0x3e1db86b3e289fe7U, 0x3e152037be4f1c5bU, 0xbd3f217c3e4fd653U,
  0x3ca1c26f3be70454U, 0xbde45392be3fe033U, 0xbe53ffa33d57c441U, 0x3e45aea7be08a851U,
  0x3c82e945be59359fU, 0xbdc06c18bd39d744U, 0xbcc86510be2f41d0U, 0x3dbf4077bd7d8746U,
  0xbe0234823c6c271eU, 0xbddb7915bb284d4aU, 0xbdd199883dfaa4dfU, 0x3dbfb43a3c9815acU,
  0x3e10868d3e157c17U, 0x3cc9e888bdc2e7f2U, 0x3d5456dcbd8fee26U, 0xbe84b0953ac3d280U,
  0x3d4e9df9bda51826U, 0xbe351905bdb79079U, 0x3dfecdfa3d4dc384U, 0x3e2012ebbe503806U,
  0x3cf9b715bddb45ebU, 0x3e15bacebe292157U, 0xbe131ab2bdbdbc3dU, 0x3e5c2d39bde8da8fU,
  0xbd2342f23e4b7627U, 0x3cb0060ebd2e88d8U, 0x3dd20d273e0f01daU, 0x3ea9f48d3de449eeU,
  0x3b356ec03d15dc49U, 0x3c0ee890be06dbacU, 0xbd7f4d34bd852bdcU, 0x3c85f62abd979b10U,
  0xbe39ca92be87a0a6U, 0xbdc9e0c5be2a7182U, 0xbd9984103dd5ee5dU, 0xbd070914be280788U,
  0x3d40d02ebe3f8687U, 0x3dd24fcebe21e302U, 0x3e5589c5bc7cf3f0U, 0xbe1d44a6be2da6ccU,
  0xbe254fa53d472c2aU, 0x3c9df03c3db1fcc9U, 0x3e59c27ebe214dc9U, 0xbcd146603de33d97U,
  0xbe01da0c3e5c8b97U, 0x3d39492e3e1597d1U, 0x3e24703dbda10e24U, 0x3dc3cb663ce70cc8U,
  0x3df75447bd4cf0ccU, 0x3e183dfabd56c9a0U, 0x3dccac7ebdec3416U, 0xbdb90ec83e21b0b9U,
  0xbd5b323dbc24f1e0U, 0x3cdb0e3fbcb83089U, 0xbeaa08d73e20c62bU, 0xbc00c9f2bb36d440U,
  0xbc609b29be4aefa2U, 0x3d8291813d718454U, 0x3d96d0e0bd21654eU, 0x3e9068693d6d289cU,
  0x3d2f1b7cbe9b73b6U, 0x3d9fdc22be188cdcU, 0x3c8215d0be59823eU, 0x3e4c6ede3caa44e8U,
  0xbd88491f3c656651U, 0xbde57c14bf4c5ba3U, 0xbe86b1adbe1f057eU, 0xbe021a75bcdfc895U,
  0xbcf4c7db3e089c0dU, 0x3e0a9f373e1394cbU, 0xbda3baa03e1b0db1U, 0x3e1e0d35be768be8U,
  0x3cb212803e512b9bU, 0xbe54a757bee09ad4U, 0xbe423d3bbe1d635cU, 0x3e27c2a93ef3e79dU,
  0x3e361edb3e3e5b71U, 0x3d237c5e3d9f202eU, 0xbdbd16843cb6878cU, 0xbd1c628abcd39348U,
  0x3ce25a4dbe1252e3U, 0xbdc9b3ca3e2735b0U, 0x3d5113e4be266c9bU, 0xbe0161ed3e4beb2bU,
  0xbc85001ebdfd5021U, 0xbf0a5ff0be6ca088U, 0xbe14c4b8bd67daa7U, 0x3d8c331cbe2624b6U,
  0xbdc53496be01db55U, 0xbdb9aeaabd0d9e50U, 0x3e015970be6e7463U, 0x3d9eeae1be429d10U,
  0x3ca92bc03cc660dfU, 0xbded63bc3c7a0170U, 0xbd08ccc4be8f6759U, 0x3da04de0be09bc47U,
  0xbdb807913e48692fU, 0x3e560da33e268e79U, 0xbc7804cbbd16d22aU, 0x3e18bb95bf29ea52U,
  0x3de1b439be0eb1d4U, 0xbd4375383e4cc0cfU, 0x3e5b0b4b3e3ffaafU, 0x3e0c01a7be8e2ff3U,
  0x3db9572e3d49f03dU, 0x3ddc36cc3eadc276U, 0x3cd3c4193e5e40ecU, 0xbddecb30be5d6360U,
  0xbe3bdfce3e3e9d25U, 0xbd3a86863d5ad0ccU, 0x3deed34ebe9a605bU, 0x3c0e9bc3bd621bacU,
  0xbdcbd99d3db6eb4aU, 0x3d6ef856be0a7167U, 0x3dcf2f8a3e09be63U, 0xbe1a3c363d39f2ecU,
  0xbd8d6a76bd1c6d79U, 0x3e0dd7843e319e81U, 0x3f0fc78ebd40305aU, 0x3d4194ecbe18958cU,
  0xbdeef1a53dfda072U, 0x3b1f62313e1dd75dU, 0x3b48376cbd6ecc8aU, 0xbe955752be37c2adU,
  0x3df3450ebdd93974U, 0x3e3e02e9be4133e3U, 0x3dbd6606be58749bU, 0x3c7dfc50be3ec514U,
  0x3e5d1203be0e91ebU, 0xbdc50bd0bdc0b635U, 0x3e2ed713bcaab9e6U, 0x3c92ac08be83b68fU,
  0xbe7c62753df1d7aaU, 0xbe4aabe1bdbf7adaU, 0x3df8e8e63e31ad01U, 0x3c3276c0bd6f9020U,
  0xbd93eddcbe467a2fU, 0xba6bc300be071c4bU, 0xbd29d3ac3e0e4e01U, 0xbda610b2be268d3cU,
  0xbd8516e03d02deacU, 0x3da7e6513e37aec5U, 0x3df40f46be3b06a5U, 0xbded89bb3e0edc83U,
  0xbe1391503e22c461U, 0xbe4ca7923e09b1c3U, 0x3cf41ae03d81fd0eU, 0xbcbbcdd8be146a97U,
  0x3d2ee3c43e7c00f5U, 0x3c7d6d8cbe005668U, 0xbe17a6e53d2324bbU, 0xbca4ceda3e1167c3U,
  0xbe2d1cf43d07ce6cU, 0xbde8581d3dcb8b52U, 0x3d689aafbe7624a5U, 0xbd70136cbe48b1ebU,
  0xb8bbb800be49e4d1U, 0x3d9271d6be0470e2U, 0xbdfeb2ffbce97fc8U, 0x3e2488493dc55a0eU,
  0xbddea7d1ba25e83aU, 0xbd3d57c43df8c2e9U, 0xbacb26c7bbeebaf9U, 0x3e17573bbe868518U,
  0xbc0064d83dac13d2U, 0x3da45506be39d7ddU, 0x3d9df00a3e3ea9bfU, 0x3d68b54c3e0710b3U,
  0x3e30af13bd464458U, 0x3d3e8004bd583e1bU, 0x3d501dac3dd69de6U, 0xbe4817edbd202612U,
  0xbdf44550be37d5baU, 0xbe626cf3be41699cU, 0xbe2d74203b5b0539U, 0xbdd0b4463cc161b0U,
  0xbe2fed6fbdd22c2fU, 0xbe79b7af3d54b073U, 0xbdb55c463e37c62fU, 0xbe18c3ecbe2e1bb4U,
  0x3d99c341bdc930c6U, 0x3c23594dbdcc470fU, 0xbda6d6b83d0a83f4U, 0xbcbef3e7be47460aU,
  0xbe75c78f3db08d82U, 0xbe03eb8e3e02f559U, 0xbe8e56d9bd010790U, 0x3de5b82bbd68da94U,
  0x3e15a7813dbcbc01U, 0xbe5864163c1311d0U, 0x3d790c84bec8633aU, 0x3dc5dafd3e00d00dU,
  0xbee66de4be1358ccU, 0xbe05a9183b1f97e4U, 0xbd8657463ca7ef8fU, 0xbe4254e5bcc0a2fdU,
  0xbdc05fcebe1864f1U, 0xbdf89934bd97a75aU, 0xbd578b08be0063f0U, 0xbe0bc2d4bec976adU,
  0xbce1b490be06ef25U, 0xbdc83eadbe251e46U, 0xbe26a7e0bcb467d0U, 0xbe09363fbdb34217U,
  0xbde3e118be05ad40U, 0x3b163a733e5cabe5U, 0xbc6138803f1978b4U, 0xbe5a61753d3f7164U,
  0x3d55c6a9bd747058U, 0x3dc7275fbe31bc58U, 0x3c1a9b803c8ec228U, 0x3e32175dbc725b20U,
  0xbe39d9573e88fc1fU, 0xbea94ccdbebfdd7bU, 0xbd501d50bb47b894U, 0xbd81043fbd310614U,
  0x3ec56787bd5dd294U, 0x3e49913bbd24623cU, 0x3db4a9f3bd6c5aeaU, 0x3ec04a433e2cef99U,
  0x3cc69b483d5abcc0U, 0xbd7399bc3c4a4560U, 0x3d49b70cbe918b5bU, 0xbdbb71dabdf899f6U,
  0xbe2838463da6e9bfU, 0xbe0df51b3e13974bU, 0x3d7ee73a3cb34e15U, 0xbdeeb5cfbf532f36U,
  0x3e4ea7b3bd2f06e8U, 0x3de59deebdd9996fU, 0x3da0a532bca245f0U, 0xbe5899afbecff42dU,
  0x3daa1edabe31c725U, 0x3dabce623dde9a7fU, 0x3d4a1ea4bc499514U, 0x3e2e7235beb683b2U,
  0xbe3141983e5cdb7fU, 0x3dca9cdc3c01a330U, 0x3e2837b1be449743U, 0x3d30c723be002ca6U,
  0xbe6d8da43d27a5acU, 0xbdfbffa9be912a76U, 0xbe00f11abd81fc60U, 0x3e013f3bbe484846U,
  0xbde08af53c8e0f73U, 0x3e7dd9b93de9a238U, 0xbe631cd83df53fddU, 0xbc4f7659bc04ffd0U,
  0xbc8239e33d9f0416U, 0x3e329eeebd53ac68U, 0x3ce7ba343d473552U, 0xbe3da321bda77ae4U,
  0x3df35ec23d0ab7e9U, 0x3e0cfea3be4c091aU, 0xbcf271f83ec91ad9U, 0x3e5927923d527d8cU,
  0x3d8d62153ec19435U, 0xbc93b0b83d32a26dU, 0x3db7f931bda5121dU, 0xbcfd8c10be7eae38U,
  0x3ea0f1a83d009afcU, 0x3e2472cf3d68df2cU, 0x3dba1f02be533cdfU, 0xbe3e0788be627cc2U,
  0x3e49e9713df2708aU, 0xbdabf781bd019942U, 0xbcd22eddbe21d92eU, 0xbd95545e3cd6c43fU,
  0xbdf06432be2d0871U, 0x3d8ace683e107527U, 0x3d6122b43b621fa4U, 0x3da9cdb53d571b7cU,
  0x3d135d953d7c8f24U, 0x3d0ca88ebbd13c09U, 0x3d930cbe3b6e1d00U, 0xbccc40903e43d157U,
  0x3e0226373dda4063U, 0xbe1e0e19bd80e7e7U, 0xbd41bb673e37c7feU, 0xbce9e0e03d64cb34U,
  0x3e3b1c22bd8a7d3eU, 0xbdd37a5abe2ebc2cU, 0xbd0e0ae53dd03f79U, 0x3d584dcf3dd20a9aU,
  0x3bae6fc0bd935d89U, 0x3deecc1e3dc407caU, 0xbe19a5963c0298e7U, 0x3da07aebbc59c8c0U,
  0x3dcca514bd2d64d5U, 0xbe118fe53da69626U, 0xbe59d9c2be4205bdU, 0x3dd61f7abe20b357U,
  0xbdefd171be5c7d05U, 0xbe316458be4cefedU, 0x3e4bb303be29f04cU, 0x3c07944c3e0ee354U,
  0xbdf09b6f3d8490a6U, 0x3e21044fbd4004d4U, 0xbe395af53e43a1f2U, 0x3de67aaabdcd53c5U,
  0xbdef4c48be1e4efcU, 0xbdb8e4db3d919436U, 0x3dd5681a3d3fa1c2U, 0x3db998573d5c822cU,
  0xbda47983bd38f4e8U, 0xbdd3fe7b3d6b18b2U, 0xbe400cb5bbc88de0U, 0x3ce46ab03e18e129U,
  0xbdd3d668be606ba0U, 0xbe5b8bb53e054a71U, 0xbd5de659be1e6033U, 0x3d71fa0e3b731c00U,
  0xbdc9d2ac3e1df203U, 0xbd41d4773e06c6d9U, 0xbe49cd793b426e9dU, 0xbddce97ebe4eaf45U,
  0x3d40a31cbe1af4d2U, 0xbe05c57cbdfad6cfU, 0x3d254714be06f616U, 0xbe06587bbe2284a2U,
  0x3d0cd02abc76adb9U, 0x3e0b77473d852bf9U, 0xbdef506e3d01b3f0U, 0x3e04b6c3bdcfff31U,
  0x3d11e9223dd4ede2U, 0xbe0011d43da1e74eU, 0x3def4e1a3e2ece2fU, 0x3dfc21e63ca6c47cU,
  0xbd711730bd1732d4U, 0x3da56dbb3c81f3a0U, 0xbe4133ed3d5ae6c8U, 0x3e34622bbd540f91U,
  0x3d3bf00cbd6cfaf8U, 0x3ccce7a73e31b25dU, 0xbe47fc2cbe876104U, 0x3d465cfcbe00d786U,
  0xbe093c27bd9cc784U, 0x3d50ef353cc2c429U, 0xbcfa3d30bbfc99a0U, 0xbd403bf4bc9d3488U,
  0x3da8663bbe43d0dcU, 0xbeb241afbe6925f4U, 0x3d56ced83e22be64U, 0xbe5efab1bd86eb6cU,
  0xbe0346de3dcfc4b6U, 0x3e329c2e3e0c570dU, 0xbd0e4488be5b187eU, 0xbe218f71bdac8e62U,
  0x3e09e12dbd8d8c36U, 0xbdd52132bdc440ecU, 0xbdf00ce43d523e76U, 0xbe10b2f3bdd52973U,
  0xbe39aabe3d0c994cU, 0xbd86b012be950b06U, 0xbd48833fbe3d2b0dU, 0xbc8d29d8bea67662U,
  0x3dc96cf43e33a2bbU, 0x3df3d22e3e31fb1fU, 0x3d23057cbd976604U, 0xbe3db09fbea200ceU,
  0xbd305768bea8fd65U, 0xbdeaf326bde9f22dU, 0xbe3cc8413ca36da4U, 0x3e19ac9f3e9af166U,
  0xbe1e20cdbc603dd0U, 0xbdde33e9bd80d1d0U, 0xbd0168d4bd87590cU, 0x3d5c86333e22852dU,
  0xbd5e8c6bbdbf14b0U, 0x3d2482343e7d9d89U, 0xbdbdbbb63e154b3fU, 0xbd3e0e803c32c2c0U,
  0xbde0e823beb05fbfU, 0xbe8e6b613d83b46bU, 0x3e91536c3ce24770U, 0x3da587d33c45aba0U,
  0xbeb78898bd43d9bcU, 0xbdafd5a53c784cf0U, 0xbe05f6cfbc912acbU, 0xbe12d7ce3cf6bf20U,
  0xbe5b7b86bdc88510U, 0x3e1ba17fbe394c79U, 0xbe2e28e2be7b6fb3U, 0x3da88cc6be15c8a8U,
  0xbc2c7c40bdf8c01cU, 0x3e417c8d3bcc3f9dU, 0x3cbdeca03cea61caU, 0xbd7a661cbcdbb5c9U,
  0xbd6908983e07756bU, 0x3e4e4859be296126U, 0x3dd78f7e3e0506e1U, 0xbe29ca193c05525fU,
  0x3e5cf6edbda775daU, 0xbddd9c1f39aa966bU, 0x3e113a8dbe34979eU, 0xbe5867eebe6b642eU,
  0x3dfc8f723dff0c32U, 0xbe53b94ebe11f4b2U, 0xba995e00be297e8fU, 0x3d1de4c63ddffbeaU,
  0xbd2128973cf3a248U, 0x3e167304be741139U, 0xbe54ca00bd5210ecU, 0xbd0dbfd03e068aa1U,
  0xbe6b524abbf0ac86U, 0xbd350318be117c1dU, 0xbe010848be7de86cU, 0x3de8198abe0b1e71U,
  0xbe44f559be3670caU, 0x3d0c988c3d4f100cU, 0x3e2212c63d27863eU, 0xbd97b89abcc99f88U,
  0x3d1ae3acbe6d6442U, 0x3d872c36bcc8eaa8U, 0xbe3e67f1bcbdb698U, 0xbe80d00fbd9b4da0U,
  0xbdb6aacdbdc7e8b8U, 0x3cb4a8e8be5c0616U, 0xbe3996e2be374a2eU, 0xbd2b80e4be57305eU,
  0x3dca694ebe3c33c4U, 0xbe544c5b3e5518c5U, 0xbe2dda3c3e5d96cdU, 0x3db12556bd9ba68fU,
  0x3d1a5f7cbde13759U, 0xbd1c606dbdde58f1U, 0x3ce24950be39ac2bU, 0x3e0d12e93d400271U,
  0xbe21b8e23deea382U, 0xbe9c4bf7be1094c0U, 0xbdccbdeabde5bc7fU, 0x3e0cc6eabe53dd1aU,
  0x3dd554bf3d8c51d6U, 0xbe6738f93d519562U, 0x3d887cfe3caf5d78U, 0x3e0de3adbe2280d4U,
  0x3e0ad4e2be808fa9U, 0xbe38a69ebe8af644U, 0xbe822938bdd46478U, 0xbdcaa7c23d8afb5aU,
  0x3ddf16a33e401dbbU, 0xbe5a6ca3ba9f0100U, 0x3de64d43bcdb0b48U, 0xbc8a0614bc588240U,
  0x3da4b69ebc20fcc3U, 0x3e4dd45f3e335447U, 0x3e46b733be8ee336U, 0xbb62f9b5bd9beda0U,
  0xbeb081b43e2e1691U, 0x3e3c445b3de91252U, 0xbedc8efc3d727355U, 0x3d82c962bd0d0883U,
  0xbe4ba8a53e5c29ebU, 0xbe3449363e4b3e89U, 0x39ec1a003d17ef4cU, 0x3e480ba4bef04767U,
  0xbe2b7e13bd91b19eU, 0xbe5ae2e7ba5af8eeU, 0x3ddfd26a3d48dc7eU, 0x3e2f0125be95180aU,
  0x3e4617793db418f2U, 0x3de593983bcd75a0U, 0x3da27b5e3e21a660U, 0xbe259097be51e3faU,
  0x3de386a6be4de6e1U, 0x3d7a84eebc2f1b02U, 0x3e550f45bdbe2f7dU, 0xbe2d6cd53e5c37edU,
  0xbdfd65e03ea26211U, 0xbbeaa37bbf0b7816U, 0xbf0999e83de331c9U, 0xbc129047be1552acU,
  0x3e9aba30bc725740U, 0x3db18d803df5871eU, 0xbda0fe0a3d7eb341U, 0x3ed5a259bdb0a5d0U,
  0xbe24c8ec3e3b7810U, 0xbe3874ba3ccb0820U, 0xbe179430bc1a1543U, 0xbe3e8e7bbe132ae1U,
  0xbe3083d63defcfc4U, 0x3ded0232bdda88a4U, 0xbdc31b0fbdc7fbecU, 0x3d7c002c3e12714cU,
  0xbd9f98173e200253U, 0xbd3b6bf83d856302U, 0xbdfd7ab7bcb6a940U, 0xbe5845a4be6f54c0U,
  0xbd54b0c0bcf39875U, 0xbe66108fbcb12021U, 0x3b98f34839a3a000U, 0xbe1f89dabe224b41U,
  0x3d445f94be36b0e7U, 0xbe60b6cf3c3a6090U, 0xbe0cad343e12cff7U, 0xbe77041cbdcca0d2U,
  0x3e336a1e3dbbe9a6U, 0xbd8eb80fbc58df46U, 0x3d10a19c3e0f27f7U, 0x3b9c27403d160ec4U,
  0x3e369de2bda70237U, 0xbe686deabb385005U, 0xbe569970be0ae5a1U, 0xbcb3b76f3d10b78cU,
  0xbc9254c53e129969U, 0xbdbb5fccbe0c071bU, 0xbdb4d57f3d98164eU, 0xbd81807dbd613b60U,
  0xbda7aa54be6e2bfeU, 0x3c8f8c98bc864870U, 0xbe2a408abe147cf0U, 0x3d6e69fe3d4c923cU,
  0xbdc79224bde8cd47U, 0xbe5b5b4b3b8b7e69U, 0xbdab32e9bdd6cb2aU, 0xbdd188a3be189bf1U,
  0x3ddf557a3e077a81U, 0x3e31ba33bd0f9cacU, 0xbe1ba65b3dbd3a52U, 0x3d89ba72be0e3febU,
  0x3de999463d827376U, 0x3d7c1b8a3d81651dU, 0xbe3e2d59bdf0f4b7U, 0xbe160ad63c82c0f2U,
  0xbe276cfabe1b03a4U, 0xbe9feb9f3dfccc66U, 0xbd2e7874be8d8278U, 0x3d62af463d7497dcU,
  0xbe2e663fbdc3c9a7U, 0x3d6f92febcd90ef8U, 0xbdea5441be35bb05U, 0xbd7b0e3c3d9f2f4eU,
  0x3d188cd9be10de78U, 0xbcf194f7bc2f8efbU, 0xbce0f1aabe5d6eb4U, 0xbe3039fc3e2f604dU,
  0xbd95c538be1340a6U, 0xbe19cd65bbf04120U, 0xba55293ebd35cf18U, 0xbd0a9096be366aeeU,
  0x3d5d3f4cbe38a980U, 0x3dfe76babe15c80fU, 0xbe095e38bc4be52cU, 0x3e2fb6923bedae20U,
  0xbe8499b9be3d14e7U, 0x3ce6feb8bf437f52U, 0xbef0fb7abce772bbU, 0x3e25de6d3ed3c7c2U,
  0xbeb6b7d1bd623ae8U, 0xbdd2add1bc266640U, 0xbe324bc63e4bf4b9U, 0x3dddeace3e17f741U,
  0xbd1416ccbe81899cU, 0xbe8aa2a8be5cf622U, 0x3e54fd41bdbfdb1dU, 0x3e56a0333e8fd040U,
  0xbe0b8935be2e8674U, 0x3d8679633e2f006dU, 0xbe322c0bbe049a15U, 0xbe578709bde73b5aU,
  0x3d523c863e4754d3U, 0x3cffa6833e0afffaU, 0xbcb6b7003d21271cU, 0x3e395495be27cc09U,
  0xbbdbe612bf464cfbU, 0xbe609e56bee7b0acU, 0x3d441762be91d8a9U, 0x3e28271bbd2df0b4U,
  0xbf4005aa3d331e1cU, 0xbe1d36d83e0249d1U, 0x3e35bb3d3d6bbba9U, 0xbd374e7f3e1a07dfU,
  0x3d0f209c3d3630c1U, 0x3cd253f03d909ea2U, 0x3e1342abbe66209dU, 0x3d41973c3db92e56U,
  0xbe152094be2fb35aU, 0xbde91873be453038U, 0x3def9fd5bdcec180U, 0x3c454490be38ecf7U,
  0x3db681f9be28f2a9U, 0x3d0e4adc3e27ed61U, 0x3e4cc1d3bdac9e3eU, 0x3df20fe23d8679aeU,
  0x3e07f38b3d4efffcU, 0xbdd6c1473d38123bU, 0xbcfb4a38be1ca7f5U, 0x3d689b94be00d6a1U,
  0x3cb2b8383c0f7f10U, 0xbe645dc0bd826e7aU, 0x3e45c0013d228060U, 0xbd893b8f3e311b11U,
  0xbd9ec3823e3313a3U, 0xbe6e1fb43de476e8U, 0xbc375600be42ba43U, 0x3e4e48f9bce02ed8U,
  0xbdbe5f173ddfe47dU, 0xbd593d47be295251U, 0xbdfa9bb83e36c860U, 0xbd0bc0793e3b14c9U,
  0xbd2c4a833e4e8c6dU, 0x3dfccadabe3fa203U, 0xbe37f6163bff0cf8U, 0x3d1ab1d4bde45911U,
  0xbe25f572bd5c3cf2U, 0x3e439781bd2ae564U, 0xbd98bc123db044a0U, 0xbdbf72ad3e511df1U,
  0xbe1f2272bd92cce2U, 0xbc6e9d203d1a2e86U, 0xbc8cc235bc276e7eU, 0x3e292e29be2f14e9U,
  0xbc1d5ba5be4bfbc6U, 0xbd649cb4be5b991eU, 0xbe5c4da83defb942U, 0x3e32ad79bdb99b49U,
  0x3e5a427f3d8beaa6U, 0xbd97a25bbd5af828U, 0xbcff78303e22d3a7U, 0xbd415c9cbb81a0feU,
  0x3d5d393c3e209c0bU, 0xbd473be5be1b32ccU, 0xbd45db48be64893eU, 0xbe43399f3d857946U,
  0xbe4dc4733df79b96U, 0xbe8e96603d62d9e0U, 0xbe09af20bd844f0aU, 0xbd18a7043de5b9b2U,
  0xbddbe2a7bd930f18U, 0xbba08b5bbe113a5eU, 0xbda59289be1650c7U, 0xbd608725bdb159f4U,
  0xbdb130d73d5b882cU, 0x3e2821733cb9c368U, 0xbe0f99beba7c0649U, 0x3dea80153da0f93eU,
  0xbe20bd66be6b7da4U, 0x3e5cd2e73d59900cU, 0x3d8db9aebe0ba94cU, 0xbdcecbbdbe293a0aU,
  0x3dfc10b93ded3290U, 0x3dbf21663e158807U, 0xbcb32b93be2ff189U, 0xbe32b80abc206b55U,
  0xbe35c124bc2c0f60U, 0x3e5434d3bd0b69f0U, 0xbda16520be0c4612U, 0xbe1162673db36e23U,
  0x3dc9c60ebdc94610U, 0x3e326f1dbe45deb6U, 0xbe42748c3d82f96aU, 0xbdcf501fbd5718fcU,
  0x3e01e3893d0d12d4U, 0xbdfc390abd77b6e0U, 0x3b9eb3603d61f7c2U, 0xbe4f7b333bb005e0U,
  0x3d72cc26be1b9305U, 0x3d955f49be675caaU, 0xbe299a7bbda01d32U, 0x3ce3f538be36e456U,
  0xbe002713be88664aU, 0xbe4f3c65bdaa5ab2U, 0x3d68a25ebda14753U, 0x3d9a7a17bd7eca28U,
  0xbcd8d0733e41738dU, 0xbe1f4200be2d521cU, 0xbe1d29913d5f5205U, 0xbddc93b83d9addf6U,
  0x3d1a04d4be6ec6e5U, 0xbd5f7438be5c9ec1U, 0xbda7f282be3511d9U, 0x3e313761bd896808U,
  0xbcf9d258be83baf7U, 0xbdfd3dc4be20bec3U, 0xbd915cd03df82bf4U, 0x3e35d027be2d81e8U,
  0xbdb6a9663e36a0dfU, 0x3d8daca63e114e0dU, 0xbd36aa9cbd135594U, 0xbe5b78cabe49a1a8U,
  0xbb222ac03dced7daU, 0xbdd2a3abbd63dca2U, 0xbd2070643c5c2f00U, 0x3cb60718be2903acU,
  0x3dd4f5863d81b49aU, 0x3d2ad6fc3dbc9d9aU, 0xbe11dc29bdfa5f22U, 0xbe33100d3dc3dd0eU,
  0xbe3062363e369f3bU, 0xbc08ebd33d7dad97U, 0x3d84a4263e27861bU, 0x3dc99002bce2dd10U,
  0xbbe33ae0be4ad14bU, 0x3b9e55f73d20b26cU, 0xbe124f633e4f0b87U, 0xbdf4323a3e117af9U,
  0xbe148b0d3ca27108U, 0xbd3754ac3dfde2e2U, 0xbe1a8c83be4d1454U, 0x3df9905a3e068707U,
  0xbdcf4e09bdbbd973U, 0x3cfc26483e15963fU, 0x3cfa3a10be21631fU, 0xbd1278d8bc3b1be0U,
  0xbe78418c3daa1429U, 0x3e33b5013cd7026dU, 0xbe6197323da002d2U, 0x3dac5016bb1c7a13U,
  0x3df44d4abc917d40U, 0x3e2757c33da1b76eU, 0xbe19228cbe4d81a6U, 0x3cd586583e18d61cU,
  0x3e4aa5a1bcfbb713U, 0x3d80277fbd594b06U, 0xbe44e83dbdb0435cU, 0xbe54673bbd54e17fU,
  0xbe32d5ebbd95938eU, 0xbe82c6a7bd9b2bc6U, 0xbce14d30be170f47U, 0x3dc689243d763f2cU,
  0xbe13f524bbe79120U, 0x3c126609bd0cf5ceU, 0xbd552d303d189424U, 0x3d20435cbdd31470U,
  0xbe6fb80fbe0fed60U, 0xbc9c419e3e2606aeU, 0xbe5a503ebdc0e19bU, 0xbe30e72eba670000U,
  0xbe805793be0bf72eU, 0x3d72f69fbdaa348eU, 0xbe87ea193e060f6bU, 0xbe884855be571283U,
  0x3de44ba6bd60db13U, 0xbda76eca3d787554U, 0xbe5363353e1dfe0dU, 0x3ada0e4abd352c0cU,
  0xbdc56e27beb41955U, 0xbd118440bdb8ff02U, 0xbdd1515d3d5cda8bU, 0xbe51ac2c3ef645d0U,
  0xbe5152133e131f17U, 0x3da73bb2bda3c2f6U, 0xbe436c5ebdef991dU, 0xbdecbbed3e9d0dc9U,
  0x3e5c12eb3dee1546U, 0x3daba7c7be8286beU, 0x3dd9e09c3d27d946U, 0x3dc2cc86be11ba53U,
  0xbd18c144bd9ce2a2U, 0xbd782c67bd34e5acU, 0xbb36c9003eba6950U, 0x3d261ef4bbc6dfe0U,
  0x3db5e48ebd1d7490U, 0x3c9a1d63ba13abb8U, 0xbcdcf9a8be50e607U, 0xbe1127a6be2e47b8U,
  0x3eaffddc3e3aa61eU, 0xbe393d94beb7806bU, 0xbef1b4c73e1082cdU, 0xbd820074be58490dU,
  0x3ebedb96bdc3521dU, 0xbdcc73b63dc8f81aU, 0xbe6924c7bddf139aU, 0x3e8e5556be0e577bU,
  0x3d218e1cbdbf54a1U, 0x3d4335743e36bb71U, 0xbdf3de2cbcc8cde9U, 0x3d977f113dfde526U,
  0x3d2c59483d48b3c9U, 0x3df04a32be249359U, 0x3d74242dbf1598d0U, 0x3ceb9b68bf301e5bU,
  0x3e2efe383d38ed1cU, 0x3e4b4ee93dd3cfb2U, 0xbe1e4d02bdc135d9U, 0x3d6a37d7be444b99U,
  0xbdc0ef30bcaa8d3bU, 0x3df10608be03490cU, 0xbdbe7f6b3dc33682U, 0x3e4619593e341879U,
  0x3e1746abbe5a6ffaU, 0x3dba65d93e0d6e5fU, 0x3e1e75a1bdd229cdU, 0x3d99d1d33d8c06aaU,
  0x3dae00453d9b6402U, 0xbd98401dbc644bf3U, 0x3e4feee93dcb2dfaU, 0xbdbc18343ca0b580U,
  0xbdaf805dbe902b9cU, 0xbf03e4d13e0507a3U, 0x3e07b9f8bded0f00U, 0xbdc6116c3d8ad53eU,
  0xb8d81af63cae7238U, 0x3c7a76a1bccd95c8U, 0x3e3a807c3e2d5855U, 0xbdf761fabdc21595U,
  0x3e574c933d8092f9U, 0xbdca192b3e00ae47U, 0x3d1205543adb54b3U, 0xbdebe38a3d541a04U,
  0xbee964a33dd930b4U, 0x3dbfb09ebcb55874U, 0x3d9171af3d35b30cU, 0xbdf20189bdeae019U,
  0xbba785d3be42f059U, 0x3dea2d4e3e104ddbU, 0x3e1b1a353e43e255U, 0xbda9f2d3bf3a969cU,
  0x3d853fbebdc98ccaU, 0x3e12f4243e9b8bf7U, 0x3e1d9ae5be498513U, 0xbe1bcd62bd2583d1U,
  0xbcf4b288bded42f6U, 0x3d5b8a60bccffb90U, 0xbde9acf2beb6901bU, 0x3de959cfbe29b77eU,
  0x3d653f9dbb7d2580U, 0xbd54af9c3df1afabU, 0xbde5fc1d3d8bb4aaU, 0x3bffe7c03e068dffU,
  0xbd0081bfbe35655dU, 0x3da43ad3bd960201U, 0x3f1a8df23dccde3bU, 0x3de685d33d5a209cU,
  0xbe80bd303d57ebbcU, 0x3dcd76263e2eacedU, 0x3e1dcd49bdaeca26U, 0xbe932ac9be441cb2U,
  0x3db9bf9e3d10db5bU, 0xbda45d78be1f8641U, 0x3e0c36bd3e2ef024U, 0x3e4c086ebddb8e1aU,
  0x3e327808be4b85faU, 0xbe38eb0fbe04af0fU, 0xbe037cbcbea93190U, 0x3c350de0bcb44d9dU,
  0xbe094405bce868d0U, 0xbe47fc913dceec4eU, 0x3d84340ebdf573fdU, 0x3e4c09a8be6e5bd7U,
  0xbdda85583e2b1ec4U, 0xbca952283d32a1e6U, 0x3de0ee5dbe15bcb4U, 0xbda96152bdd41976U,
  0x3d70aa14bc984ef0U, 0xbd2821bf3ce53650U, 0xbd479ea4bd505bb3U, 0xbe5818373d00c9b0U,
  0xbe3b2ee9bdea2297U, 0xbe58c7a63d0585acU, 0xbe37e399bc302890U, 0x3e24a61f3e0936c3U,
  0x3e031399bd964078U, 0xbe83e261bcd06a5dU, 0x3dc6d6abbccc9c9fU, 0xbdc67518bd1fe008U,
  0x3d49bfe33d49a38cU, 0xbe10dee53e067d49U, 0xbdf5b8213ce33044U, 0x3ded48123d83fe72U,
  0xbc23de80bdae4b78U, 0xbcfa2ba83ca5d360U, 0xbc83b7e0bddd8e49U, 0xbdf47e6abd87e466U,
  0x3d41f6b23bb92d20U, 0x3bb3a6c03d0eb459U, 0x3e1032313e0e3a88U, 0xbe49779dbd934cf4U,
  0xbe34a7e5be05549bU, 0xbc426320be4e8de3U, 0xbd8c1ea2bdae41f8U, 0x3d371f7cbdfc7584U,
  0xbc88de88be50f1fbU, 0xbd4adf8bbe8cb437U, 0x3e229551bd900e18U, 0xbe1ecf82bdfe0292U,
  0x3dc6a9da3d292074U, 0x3dd3b72f3dd13ee6U, 0x3d27870cbc9640adU, 0xbdce5c1abe26d8a1U,
  0xbe897225bdb26842U, 0xbc7ca6e93b2e8b4fU, 0x3e0f513f3d9f65c2U, 0xbe21d2d7be3d0621U,
  0x3cbbe838be64b804U, 0xbccd1ccdbe4fa87eU, 0xbe7184e93d807d2bU, 0xbe7249383d48fd64U,
  0x3bedb44fbdf76ef7U, 0x3ceef61dbe1e8777U, 0x3be7d5f63d2dc450U, 0x3d90ac543d51e5ccU,
  0xbe1e0fc4be4ec5b4U, 0x3e505fe7be0be01eU, 0x3d24f14cbe2fda22U, 0xbe389650be2a0a17U,
  0xbe41121abcb1f3a3U, 0x3cdcf3b03d7595e9U, 0xbdcca9293da33637U, 0xbe5cd974bdc28dd5U,
  0xbdcdc841be2376e0U, 0xbde16deebdaa604aU, 0x3e3cde2f3e09f94fU, 0xbda3dcbabc2d733eU,
  0xbdf2dc57be1d08afU, 0xbd076f91be53f3ccU, 0x3d720c1c3d93b126U, 0xbc892058bcebdb19U,
  0x3e4546c1bd9221c8U, 0xbdea09693e30bdf9U, 0x3d59870cbe32f1a8U, 0xbcef6b0bbde7731aU,
  0x3df45689be13204cU, 0xbd6e11acbe09f66aU, 0x3e0d28133d5a180cU, 0x3da0dfcebe4ccb26U,
  0xbe8ed6a93d15a78aU, 0xbd411bf23c1e7f21U, 0x3d39c55bbd6da5b3U, 0xbdf71dcbbd064c48U,
  0xbe1b37c43db36b1eU, 0xbe5d3a54be3960c5U, 0xbb8b8385bd891606U, 0xbe4050983d8da546U,
  0x3dab06c6bde0b675U, 0xbdafdc9abe4eab58U, 0xbbfa4260be048cfcU, 0xbe4ab12bbc9e0100U,
  0x3e73d2043d8bd3f7U, 0xbde5ef49be1d38afU, 0x3d874025bc59c254U, 0xbdefb419be3a8926U,
  0xbd1bd6473c335900U, 0x3ca1f9b8bd928b3eU, 0xbdaabde6bd9607d2U, 0x3c3b3da0bda2e091U,
  0xbd8b47663da5865aU, 0xbd03ec86be298aceU, 0xb9971800bdc1a892U, 0xbe116214bd952c47U,
  0xbd0be5743d95a1e6U, 0xbe256d37bc99dcc8U, 0x3c46a950beace82cU, 0xbe6fe4403de147eeU,
  0xbe5dabd6bc9d5f48U, 0xbe5c9dabbda15e39U, 0xbd4f7c28bd28f798U, 0xbd9bd1f03de6f0beU,
  0x3e1874403d7a5b64U, 0xbe404311bdef9b49U, 0xbe1bfa59be25db3aU, 0xbe968482be354410U,
  0xbce181ac3d85c30eU, 0xbe1519203ba07d20U, 0xbd959bacbdc7ea9dU, 0x3d0a40f23c812ae8U,
  0xbe07ad6c3e9fcbfdU, 0xbdf9bb3dbdcbac6cU, 0xbdc458c7bcd0d568U, 0xbdcac1d13d2bea57U,
  0xbdbcc07bbec90f01U, 0x3e1be23d3ea7bd55U, 0xbd1743a9bd9c398fU, 0x3e44ec50bdfb73cdU,
  0xbdbdd772bdd4d08fU, 0xbcb7a9013e1aeb2eU, 0x3ed3c2aabdb56af2U, 0xbd5deac5bdf87306U,
  0xbde3d697be223b0aU, 0x3ee30afebdf1ebc7U, 0x3c039f7cbdaaaaa5U, 0xbecdf0f9bdc12bdcU,
  0xbb510e9cbbf0f1beU, 0x3e27de8f3e5dd1eeU, 0xbd8fce513dfd9a9fU, 0xbd9a0bbbbda1cf45U,
  0xbdc50b20bce5b99dU, 0xbe0da60a3e28f9aaU, 0x3dbe829ebe04f453U, 0xbdd20e00bd57af51U,
  0xbd19bb773d56454eU, 0xbdcfec6cbde33844U, 0xbde99e15bdb1bf3fU, 0xbd803be7bd77ddd2U,
  0xbee00229be13dfa5U, 0x3e479bad3dae22d8U, 0xbd5f6c88bdc1dbe5U, 0xbe208af5bd89251cU,
  0x3e07960a3e62c3c9U, 0x3c3d60463e39b43aU, 0x3e3db89d3d5892e5U, 0xbe7e83e53dc84039U,
  0x3d9af5723dfce05eU, 0x3e0978ecbfabf7bfU, 0xbe421a2bbdfc001fU, 0x3d1a75a23dd30434U,
  0xbe165c513e57f221U, 0x3e10c53c3daeb13aU, 0x3d3d6d9abe24727fU, 0xbd02f2f43d9bdf70U,
  0xbccac76dbca03733U, 0xbdd1afc7be62693cU, 0xbf0da3613dbe5d7eU, 0x3edcf99ebe636507U,
  0x3e09c2e8bdd49f78U, 0x3d686d243d108996U, 0x3e367436bf4d4307U, 0xbdadf6e9be4e79fbU,
  0xbdb229debd3e71c2U, 0x3dc2c716bf4e81c5U, 0xbec01af1bcc25b9bU, 0x3d91083cbe8678c9U,
  0xbd4144d0bd3503c2U, 0xbdca19623dbe8754U, 0xbcbb3190be8eb0ddU, 0xbd86167e3dbb9edeU,
  0xbddd65513dad6f90U, 0xbdcf6af7bcd734fcU, 0x3dd36cdf3e3e990cU, 0x3db2ba7fbd2c160fU,
  0x3e212c2b3e23d22fU, 0xbdbaae163e30983aU, 0x3e3003cbbe609393U, 0xbdc260ee3d4a61bdU,
  0x3d81f7cdbf89f550U, 0x3d145aa03b60e55aU, 0x3e33063abe6c514eU, 0xbbe5ccddbfe27551U,
  0xbd2b440f3d9df5a9U, 0xbd1d31433dee43abU, 0x3e1e652c3b74d61fU, 0x3cce0500be1542adU,
  0x3d9a0153be8333cfU, 0x3db37567bd3d221fU, 0x3e10ed85bee4a354U, 0xbcf5dd9bbe8122b9U,
  0x3e7dbbb5bef3bf4cU, 0x3c6bad7fbd45b4c6U, 0x3e655ad7be4c1affU, 0x3e1e19afbe4cc1d7U,
  0x3cdd17a63e8fde2dU, 0x3d95130b3bd0b967U, 0x3d51ceaa3d1e4019U, 0xbe95f2483dbdb7f9U,
  0x3c0634f43da91293U, 0x3e9a2c27bdcf9579U, 0xbd1c7479be550cf4U, 0x3def5abe3d497d2cU,
  0x3e4752f33cf2182aU, 0xbd0a25353e30fefdU, 0xbe96ccc8bccaf3c1U, 0xbe3d1a323e161bcbU,
  0xbeb89877bd35b53cU, 0x3e0c7aa83e75b950U, 0xbdc5563fbd3308a3U, 0xbc25db87bdd101dbU,
  0x3e80d223bdbe6613U, 0xbde6a3ff3e237711U, 0xbd3c8b783e32d3a4U, 0xbe46592ebf2ed36cU,
  0x399d1a3f3c0a31ceU, 0x3e566380bdd667f8U, 0xbe8ecd3cbe466053U, 0x3e19bed7be03bd3fU,
  0xbdc6cc23be7ada93U, 0x3d463c5ebdbd0f00U, 0x3da3a30e3d9a95f6U, 0x3e175120bdb87bccU,
  0xbe1ef07b3ea6f9e0U, 0x3d073a81bd7c800cU, 0x3def612d3ea1654fU, 0xbe889cfcbe0e67adU,
  0x3e0941d93dec5077U, 0xbdc4fcd63d3435fcU, 0xbe0a03063d162096U, 0xbe13cf39be0845f5U,
  0x3e9862113e2c7876U, 0xbd79da483e2cc645U, 0xbbcdf1ecbe43a3a2U, 0xbe5f8eac3d659cd5U,
  0x3e2a5e4c3dbfa576U, 0xbf53fec53de413cfU, 0x3dba43ebbb3d2b2eU, 0x3bc9e3cfbdfe695eU,
  0xbe414e8a3e4bcc93U, 0xbe1c54833e5bb3e1U, 0x3e5e3dd1bcfedc92U, 0xbd6835d23de6b98dU,
  0x3e2f15abbf34ecbcU, 0x3d7b82163f40ee6aU, 0xbdc0143fbe87b325U, 0x3d476bb8be8ee599U,
  0xbb11b50abd370babU, 0xbcff211b3cd79f47U, 0x3da0eb01be528ff5U, 0x3d96bbb53ddb572eU,
  0x3d887ecbbe8db11dU, 0x3de399b4bd27d054U, 0xbe493e3d3dd34131U, 0xbe1801b7bc3adf6dU,
  0x3db98df83e412038U, 0x3d94827b3b038f30U, 0xbf2bb1a43dcb1c26U, 0x3e466b15be68ad41U,
  0x3e1c2955bede513aU, 0x3e24d3b8beab6736U, 0xbca538083dd06de6U, 0xbe08f264be86ea28U,
  0x3e811df03e000a83U, 0xbcd4537cbe813253U, 0xbdb6fb0ebe807747U, 0x3dc1d592bdce6a40U,
  0xbed7c0eb3dd7abaeU, 0xbd7499a9bf7cffadU, 0x3d12bbb83d61ab36U, 0xbdd4514c3e7d4859U,
  0x3e0bf0653ddf9af5U, 0xbe00e7d93e0fabc0U, 0x3e4c75d4be54174dU, 0xbca1da143db3306bU,
  0x3da01dab3d0f1b33U, 0x3d3a82c13e07319eU, 0x3e5c78393e0ad642U, 0xbb151ea23d6417fdU,
  0xbc1984f5bb0bc607U, 0x3d9558013e9d1c92U, 0xbd4928a23e31b573U, 0xbc1d4fe8bdfa1f42U,
  0x3dfacb8ebbbc7e34U, 0x3db60acabdd0ba2fU, 0xbe12d3913d498e2cU, 0x3d957bf4bc99bbd9U,
  0xbe873b3ebe686c63U, 0x3d8881ec3cdad516U, 0x3e50c24abe47faacU, 0xbe368eddbc93b39dU,
  0x3e4c9dd1be3f6a71U, 0xbdb9b8c7bca0d847U, 0x3d96fe283cda2b48U, 0xbe878cfe3ded525bU,
  0x3e8c367d3e878793U, 0x3d9745dbbe58bab5U, 0xbe259cf1be25c49cU, 0xbeb41c8c3e93c03dU,
  0xbf16e69f3cd0cb98U, 0xbe472af23dbe1fa4U, 0xbe1d61813e2206a4U, 0xbe212263bd6fabe5U,
  0x3e163867befcc606U, 0x3f42f82ebf5674d8U, 0x3e10adb3U,
};


ai_handle g_ia_embarque_weights_table[1 + 2] = {
  AI_HANDLE_PTR(AI_MAGIC_MARKER),
  AI_HANDLE_PTR(s_ia_embarque_weights_array_u64),
  AI_HANDLE_PTR(AI_MAGIC_MARKER),
};

